{"merges": [["n", "g"], ["c", "h"], ["n", "h"], ["t", "h"], ["e", "n"], ["t", "r"], ["t", "i"], ["k", "h"], ["t", "o"], ["r", "a"], ["p", "h"], ["e", "r"], ["l", "à"], ["\n", "\n"], ["v", "à"], ["q", "u"], ["ô", "ng"], ["o", "n"], ["ầ", "n"], ["g", "ra"], ["d", "i"], ["ti", "on"], ["o", "r"], ["à", "i"], ["d", "e"], ["kh", "ông"], ["s", "ố"], ["g", "i"], ["a", "y"], ["t", "ừ"], ["ê", "n"], ["c", "ó"], ["a", "t"], ["t", "en"], ["í", "nh"], ["ư", "ớ"], ["i", "ệ"], ["i", "n"], ["o", "ng"], ["ư", "ợ"], ["ế", "t"], ["ộ", "t"], ["k", "en"], ["c", "ủ"], ["củ", "a"], ["to", "ken"], ["ướ", "c"], ["t", "ự"], ["n", "à"], ["a", "u"], ["m", "ột"], ["ượ", "c"], ["ấ", "t"], ["ề", "u"], ["en", "t"], ["ạ", "i"], ["t", "e"], ["t", "ính"], ["ớ", "i"], ["ten", "tion"], ["th", "e"], ["the", "o"], ["c", "o"], ["á", "c"], ["ú", "ng"], ["s", "e"], ["ế", "n"], ["a", "m"], ["đ", "úng"], ["đ", "ó"], ["d", "_"], ["di", "ent"], ["l", "o"], ["s", "s"], ["m", "a"], ["gra", "dient"], ["i", "ều"], ["ù", "ng"], ["u", "l"], ["đ", "ể"], ["ằ", "ng"], ["ậ", "t"], ["b", "ằng"], ["đ", "ược"], ["p", "u"], ["ỗ", "i"], ["at", "tention"], ["m", "o"], ["l", "ại"], ["u", "y"], ["e", "a"], ["gra", "d"], ["ả", "i"], ["i", "d"], ["ch", "o"], ["qu", "a"], ["é", "p"], ["tr", "ong"], [")", ","], ["ố", "i"], ["v", "ới"], ["s", "te"], ["ste", "p"], ["á", "ch"], ["nà", "y"], ["á", "n"], ["ọ", "c"], ["b", "ài"], ["tr", "ên"], ["th", "ứ"], ["a", "i"], ["tr", "a"], ["ơ", "n"], ["đ", "ộ"], ["ph", "ải"], ["h", "ea"], ["a", "l"], ["và", "o"], ["m", "ỗi"], ["h", "ọc"], ["ọ", "i"], ["ch", "ỉ"], ["h", "o"], ["ay", "er"], ["hea", "d"], ["ph", "ép"], ["r", "e"], ["n", "ó"], ["à", "nh"], ["to", "r"], ["l", "ayer"], ["ặ", "p"], ["m", "b"], ["h", "à"], ["th", "ành"], ["b", "ước"], ["â", "y"], ["kh", "i"], ["pu", "t"], ["th", "ật"], ["r", "o"], ["ầ", "u"], ["nh", "ư"], ["a", "r"], ["đ", "i"], [")", "."], ["ti", "ế"], ["d", "o"], ["e", "d"], ["tr", "ước"], ["c", "e"], ["h", "ơn"], ["de", "l"], ["th", "am"], ["to", "án"], ["à", "n"], ["ú", "c"], ["s", "i"], ["er", "i"], ["mo", "del"], ["ồ", "i"], ["v", "ề"], ["qu", "ả"], ["a", "c"], ["lo", "ss"], ["â", "n"], ["ì", "n"], ["di", "ng"], ["đ", "ầu"], ["nà", "o"], ["s", "or"], ["to", "grad"], ["l", "ớ"], ["B", "ài"], ["kh", "ác"], ["gi", "ữ"], ["ạ", "o"], ["w", "ar"], ["ch", "i"], ["c", "ả"], ["c", "a"], ["R", "N"], ["RN", "N"], ["ti", "m"], ["e", "mb"], ["s", "u"], ["ch", "iều"], ["ng", "h"], ["hà", "m"], ["i", "ết"], ["v", "ì"], ["g", "h"], ["tiế", "p"], ["0", "."], ["o", "p"], ["se", "qu"], ["sequ", "en"], ["sequen", "ce"], ["s", "ong"], ["ả", "ng"], ["ạ", "y"], ["h", "iệ"], ["m", "ọi"], ["k", "ết"], ["0", "0"], ["đ", "o"], ["d", "ùng"], ["c", "ách"], ["v", "ị"], ["d", "am"], ["m", "er"], ["au", "tograd"], ["t", "uy"], ["c", "ùng"], ["s", "au"], ["r", "ồi"], ["i", "ến"], ["tr", "í"], ["i", "z"], ["P", "y"], ["tra", "in"], ["g", "ì"], ["ph", "ần"], ["ch", "ính"], ["l", "ý"], ["s", "ai"], ["h", "id"], ["hid", "d"], ["hidd", "en"], ["_", "l"], ["f", "or"], ["ten", "sor"], ["c", "ác"], ["v", "iệ"], ["độ", "ng"], ["ch", "ạy"], ["nh", "ỏ"], ["t", "ay"], ["ự", "c"], ["đ", "ạo"], ["từ", "ng"], ["ò", "ng"], ["l", "ần"], ["s", "o"], ["ọ", "ng"], ["ậ", "p"], ["n", "e"], ["gi", "ả"], ["tuy", "ến"], ["eri", "f"], ["erif", "y"], ["c", "u"], ["giữ", "a"], ["hiệ", "n"], ["s", "ẽ"], ["v", "iết"], ["a", "tion"], ["tor", "ch"], ["lớ", "n"], ["p", "ro"], ["nh", "ìn"], ["se", "q"], ["A", "dam"], ["việ", "c"], ["s", "c"], ["qu", "y"], ["nh", "iều"], ["co", "de"], ["ì", "nh"], ["ul", "e"], ["ế", "u"], ["m", "ul"], ["to", "àn"], ["nh", "au"], ["ậ", "n"], ["ed", "ding"], ["c", "ần"], ["u", "ần"], ["p", "e"], ["ngh", "ĩ"], ["nghĩ", "a"], ["ng", "ược"], ["war", "d"], ["(", ")"], ["c", "ông"], ["thứ", "c"], ["r", "i"], ["l", "e"], ["nh", "ân"], ["tr", "ọng"], ["l", "ặp"], ["g", "e"], ["seq", "_l"], ["seq_l", "en"], ["c", "or"], ["k", "ý"], ["iz", "er"], ["w", "or"], ["a", "n"], ["ac", "k"], ["cu", "ối"], ["r", "ule"], ["c", "ài"], ["torch", "."], ["ộ", "p"], ["đ", "ủ"], ["o", "u"], ["đ", "ây"], ["emb", "edding"], ["v", "e"], ["v", "o"], ["vo", "ca"], ["voca", "b"], ["d", "ụ"], ["ố", "ng"], ["ò", "n"], ["ặ", "c"], ["G", "P"], ["ể", "m"], ["iệ", "t"], ["l", "i"], ["u", "ộ"], ["tr", "úc"], ["in", "put"], ["tr", "ận"], ["di", "m"], ["n", "."], ["co", "d"], ["cod", "er"], ["u", "n"], ["Py", "T"], ["PyT", "or"], ["PyTor", "ch"], ["nh", "ất"], ["th", "ể"], ["v", "erify"], ["c", "òn"], ["ư", "ờ"], ["b", "ack"], ["uộ", "c"], ["Đ", "ây"], ["là", "m"], ["đ", "ã"], ["giả", "m"], ["g", "ần"], ["ộ", "ng"], ["u", "p"], ["ắ", "t"], ["t", "ách"], ["ou", "t"], ["s", "t"], ["â", "u"], ["A", "t"], ["At", "tention"], ["w", "e"], ["we", "i"], ["wei", "gh"], ["weigh", "t"], ["g", "ộp"], ["t", "ă"], ["tă", "ng"], ["ve", "c"], ["vec", "tor"], ["pu", "s"], ["n", "s"], ["ns", "for"], ["nsfor", "mer"], ["đ", "ều"], ["như", "ng"], ["ti", "n"], ["n", "u"], ["th", "ê"], ["thê", "m"], ["ho", "ặc"], ["u", "e"], ["gra", "ph"], ["ch", "a"], ["ấ", "y"], ["a", "o"], ["2", "."], ["b", "ộ"], ["đi", "ểm"], ["đ", "ị"], ["đị", "nh"], ["ổ", "ng"], ["a", "1"], ["h", "ệ"], ["c", "ập"], ["nh", "ật"], ["tim", "e"], ["c", "ặp"], ["cor", "pus"], ["tra", "nsformer"], ["d", "ự"], ["iệ", "u"], ["T", "r"], ["ườ", "ng"], ["cha", "in"], ["nh", "i"], ["x", "u"], ["0", "4"], ["l", "r"], ["qua", "n"], ["p", "a"], ["a", "2"], ["d_", "z"], ["kh", "o"], ["kho", "ảng"], ["su", "ất"], ["de", "c"], ["dec", "ay"], ["b", "ất"], ["l", "iệu"], ["t", "ại"], [".", "grad"], ["m", "à"], ["gi", "á"], ["tr", "ị"], ["ẳ", "ng"], ["0", "1"], ["lo", "op"], ["ờ", "i"], ["chi", "ếu"], ["X", "O"], ["XO", "R"], ["b", "ắt"], ["out", "put"], ["e", "p"], ["time", "step"], ["d", "ài"], ["t", "uần"], ["ư", "a"], ["/", "K"], ["ti", "-"], ["ti-", "head"], ["e", "d_"], ["token", "izer"], ["Adam", "W"], ["ề", "n"], ["nu", "m"], ["d", "ữ"], ["s", "h"], ["GP", "U"], ["b", "iệt"], ["g", "ọi"], ["x", "ác"], ["4", ","], ["l", "ệ"], ["c", "ộng"], ["torch.", "n"], ["m", "ới"], ["ri", "ê"], ["riê", "ng"], ["t", "a"], ["th", "ay"], ["l", "ên"], ["1", ","], ["l", "y"], ["k", "iến"], ["si", "g"], ["sig", "mo"], ["sigmo", "id"], ["tr", "ực"], [".", "T"], ["c", "âu"], ["ẫ", "n"], ["l", "úc"], ["m", "s"], ["i", "ng"], ["b", "iến"], ["chi", "a"], ["d_", "k"], ["op", "tim"], [")", ":"], ["k", "ỳ"], ["t", "wor"], ["twor", "k"], ["ạ", "ng"], ["đ", "ến"], ["sh", "a"], ["sha", "pe"], ["ch", "u"], ["back", "ward"], ["dụ", "ng"], ["và", "i"], ["kh", "ớ"], ["khớ", "p"], ["ộ", "i"], ["r", "ất"], ["d", "òng"], ["at", "e"], ["đ", "ối"], ["2", ","], ["r", "õ"], ["a", "ng"], ["xu", "ất"], ["ac", "ti"], ["acti", "v"], ["activ", "ation"], ["0", ","]], "vocab": ["\n", "\n\n", " ", "\"", "%", "&", "'", "(", "()", ")", "),", ").", "):", "*", "+", ",", "-", ".", ".T", ".grad", "/", "/K", "0", "0,", "0.", "00", "01", "04", "1", "1,", "2", "2,", "2.", "3", "4", "4,", "5", "6", "7", "8", "9", ":", ";", "<", "=", ">", "@", "A", "Adam", "AdamW", "Attention", "B", "Bài", "C", "D", "E", "F", "G", "GP", "GPU", "H", "I", "K", "L", "M", "N", "O", "P", "Py", "PyTorch", "Q", "R", "RNN", "S", "T", "Tr", "U", "V", "W", "X", "XOR", "Y", "[", "]", "^", "_", "_l", "a", "a1", "a2", "ac", "ack", "activation", "ai", "al", "am", "an", "ang", "ao", "ar", "at", "ate", "ation", "attention", "au", "autograd", "ay", "ayer", "b", "back", "backward", "biến", "biệt", "bài", "bước", "bất", "bắt", "bằng", "bộ", "c", "ca", "ce", "ch", "cha", "chain", "chi", "chia", "chiếu", "chiều", "cho", "chu", "chính", "chạy", "chỉ", "co", "code", "coder", "cor", "corpus", "cu", "cuối", "cài", "các", "cách", "câu", "còn", "có", "công", "cùng", "cả", "cần", "cập", "cặp", "cộng", "của", "d", "d_", "d_k", "d_z", "dam", "de", "decay", "del", "di", "dient", "dim", "ding", "do", "dài", "dòng", "dùng", "dụ", "dụng", "dữ", "dự", "e", "ea", "ed", "ed_", "edding", "emb", "embedding", "en", "ent", "ep", "er", "eri", "erify", "f", "for", "g", "ge", "gh", "gi", "giá", "giả", "giảm", "giữ", "giữa", "gra", "grad", "gradient", "graph", "gì", "gần", "gọi", "gộp", "h", "hea", "head", "hidden", "hiệ", "hiện", "ho", "hoặc", "hà", "hàm", "hơn", "hệ", "học", "i", "id", "in", "ing", "input", "iz", "izer", "iến", "iết", "iều", "iệ", "iệt", "iệu", "j", "k", "ken", "kh", "khi", "khoảng", "khác", "không", "khớp", "kiến", "ký", "kết", "kỳ", "l", "layer", "le", "li", "liệu", "lo", "loop", "loss", "lr", "ly", "là", "làm", "lên", "lúc", "lý", "lại", "lần", "lặp", "lệ", "lớ", "lớn", "m", "ma", "mb", "mer", "mo", "model", "ms", "mul", "mà", "mọi", "mỗi", "một", "mới", "n", "n.", "ne", "ng", "ngh", "nghĩa", "ngược", "nh", "nhau", "nhi", "nhiều", "nhân", "nhìn", "như", "nhưng", "nhất", "nhật", "nhỏ", "nsformer", "nu", "num", "nào", "này", "nó", "o", "on", "ong", "op", "optim", "or", "ou", "out", "output", "p", "pa", "pe", "ph", "phép", "phải", "phần", "pro", "pu", "pus", "put", "q", "qu", "qua", "quan", "quy", "quả", "r", "ra", "re", "ri", "riêng", "ro", "rule", "rõ", "rất", "rồi", "s", "sai", "sau", "sc", "se", "seq", "seq_len", "sequence", "sh", "shape", "si", "sigmoid", "so", "song", "sor", "ss", "st", "step", "su", "suất", "sẽ", "số", "t", "ta", "tay", "te", "ten", "tensor", "th", "tham", "thay", "theo", "thành", "thêm", "thật", "thể", "thứ", "thức", "ti", "ti-head", "tim", "time", "timestep", "tin", "tion", "tiế", "tiếp", "to", "tograd", "token", "tokenizer", "torch", "torch.", "torch.n", "toàn", "toán", "tr", "tra", "train", "transformer", "trong", "trên", "trí", "trúc", "trước", "trận", "trị", "trọng", "trực", "tuy", "tuyến", "tuần", "twork", "tách", "tính", "tăng", "tại", "từ", "từng", "tự", "u", "ue", "ul", "ule", "un", "up", "uy", "uần", "uộ", "uộc", "v", "ve", "vector", "verify", "viết", "việ", "việc", "vocab", "và", "vài", "vào", "vì", "về", "vị", "với", "w", "war", "ward", "weight", "wor", "x", "xu", "xuất", "xác", "y", "z", "{", "}", "²", "·", "Á", "Ô", "Ý", "à", "ài", "àn", "ành", "á", "ác", "ách", "án", "â", "ân", "âu", "ây", "ã", "è", "é", "ép", "ê", "ên", "ì", "ìn", "ình", "í", "ò", "òn", "òng", "ó", "ô", "ông", "õ", "ù", "ùng", "ú", "úc", "úng", "ý", "ă", "Đ", "Đây", "đ", "đi", "điểm", "đo", "đây", "đã", "đó", "đúng", "được", "đạo", "đầu", "đến", "đều", "để", "định", "đối", "độ", "động", "đủ", "ũ", "ơ", "ơn", "ư", "ưa", "ướ", "ước", "ườ", "ường", "ượ", "ạ", "ại", "ạng", "ạo", "ạy", "ả", "ải", "ảng", "ấ", "ất", "ấy", "ầ", "ần", "ầu", "ẩ", "ẫ", "ẫn", "ậ", "ận", "ập", "ật", "ắ", "ắt", "ằ", "ằng", "ẳ", "ẳng", "ẵ", "ặ", "ặc", "ặp", "ẹ", "ẻ", "ẽ", "ế", "ến", "ết", "ếu", "ề", "ền", "ể", "ểm", "ễ", "ệ", "ỉ", "ị", "ọ", "ọc", "ọi", "ọng", "ỏ", "ố", "ối", "ống", "ồ", "ồi", "ổ", "ổng", "ỗ", "ỗi", "ội", "ộng", "ộp", "ột", "ới", "ờ", "ời", "Ở", "ở", "ỡ", "ợ", "ụ", "ủ", "ứ", "ừ", "ử", "ữ", "ự", "ực", "ỷ", "ỹ", "—", "→"]}